
const uint8_t model[] = {
    0x1c, 0x00, 0x00, 0x00, 0x54, 0x46, 0x4c, 0x33, 0x14, 0x00, 0x20, 0x00, 0x1c, 0x00, 0x18, 0x00, 0x14, 0x00, 0x10, 0x00, 0x0c, 0x00, 0x00, 0x00, 0x08, 0x00, 0x04, 0x00, 0x14, 0x00, 0x00, 0x00, 0x1c, 0x00, 0x00, 0x00, 0x8c, 0x00, 0x00, 0x00, 0xe4, 0x00, 0x00, 0x00, 0x78, 0x0a, 0x00, 0x00, 0x88, 0x0a, 0x00, 0x00, 0x90, 0x11, 0x00, 0x00, 0x03, 0x00, 0x00, 0x00, 0x01, 0x00, 0x00, 0x00, 0x04, 0x00, 0x00, 0x00, 0x36, 0xf5, 0xff, 0xff, 0x0c, 0x00, 0x00, 0x00, 0x1c, 0x00, 0x00, 0x00, 0x3c, 0x00, 0x00, 0x00, 0x0f, 0x00, 0x00, 0x00, 0x73, 0x65, 0x72, 0x76, 0x69, 0x6e, 0x67, 0x5f, 0x64, 0x65, 0x66, 0x61, 0x75, 0x6c, 0x74, 0x00, 0x01, 0x00, 0x00, 0x00, 0x04, 0x00, 0x00, 0x00, 0x90, 0xff, 0xff, 0xff, 0x0d, 0x00, 0x00, 0x00, 0x04, 0x00, 0x00, 0x00, 0x08, 0x00, 0x00, 0x00, 0x6f, 0x75, 0x74, 0x70, 0x75, 0x74, 0x5f, 0x30, 0x00, 0x00, 0x00, 0x00, 0x01, 0x00, 0x00, 0x00, 0x04, 0x00, 0x00, 0x00, 0x2a, 0xf6, 0xff, 0xff, 0x04, 0x00, 0x00, 0x00, 0x0e, 0x00, 0x00, 0x00, 0x6b, 0x65, 0x72, 0x61, 0x73, 0x5f, 0x74, 0x65, 0x6e, 0x73, 0x6f, 0x72, 0x5f, 0x39, 0x00, 0x00, 0x02, 0x00, 0x00, 0x00, 0x34, 0x00, 0x00, 0x00, 0x04, 0x00, 0x00, 0x00, 0xdc, 0xff, 0xff, 0xff, 0x10, 0x00, 0x00, 0x00, 0x04, 0x00, 0x00, 0x00, 0x13, 0x00, 0x00, 0x00, 0x43, 0x4f, 0x4e, 0x56, 0x45, 0x52, 0x53, 0x49, 0x4f, 0x4e, 0x5f, 0x4d, 0x45, 0x54, 0x41, 0x44, 0x41, 0x54, 0x41, 0x00, 0x08, 0x00, 0x0c, 0x00, 0x08, 0x00, 0x04, 0x00, 0x08, 0x00, 0x00, 0x00, 0x0f, 0x00, 0x00, 0x00, 0x04, 0x00, 0x00, 0x00, 0x13, 0x00, 0x00, 0x00, 0x6d, 0x69, 0x6e, 0x5f, 0x72, 0x75, 0x6e, 0x74, 0x69, 0x6d, 0x65, 0x5f, 0x76, 0x65, 0x72, 0x73, 0x69, 0x6f, 0x6e, 0x00, 0x11, 0x00, 0x00, 0x00, 0x90, 0x09, 0x00, 0x00, 0x88, 0x09, 0x00, 0x00, 0x58, 0x09, 0x00, 0x00, 0x40, 0x07, 0x00, 0x00, 0x30, 0x03, 0x00, 0x00, 0x00, 0x03, 0x00, 0x00, 0xb0, 0x02, 0x00, 0x00, 0x9c, 0x02, 0x00, 0x00, 0x4c, 0x02, 0x00, 0x00, 0xbc, 0x00, 0x00, 0x00, 0xb4, 0x00, 0x00, 0x00, 0xac, 0x00, 0x00, 0x00, 0xa4, 0x00, 0x00, 0x00, 0x9c, 0x00, 0x00, 0x00, 0x94, 0x00, 0x00, 0x00, 0x74, 0x00, 0x00, 0x00, 0x04, 0x00, 0x00, 0x00, 0xea, 0xf6, 0xff, 0xff, 0x04, 0x00, 0x00, 0x00, 0x60, 0x00, 0x00, 0x00, 0x10, 0x00, 0x00, 0x00, 0x00, 0x00, 0x00, 0x00, 0x08, 0x00, 0x0e, 0x00, 0x08, 0x00, 0x04, 0x00, 0x08, 0x00, 0x00, 0x00, 0x10, 0x00, 0x00, 0x00, 0x24, 0x00, 0x00, 0x00, 0x00, 0x00, 0x06, 0x00, 0x08, 0x00, 0x04, 0x00, 0x06, 0x00, 0x00, 0x00, 0x04, 0x00, 0x00, 0x00, 0x00, 0x00, 0x00, 0x00, 0x0c, 0x00, 0x18, 0x00, 0x14, 0x00, 0x10, 0x00, 0x0c, 0x00, 0x04, 0x00, 0x0c, 0x00, 0x00, 0x00, 0xb0, 0x96, 0x14, 0xe1, 0xd6, 0x5d, 0x1d, 0xb5, 0x02, 0x00, 0x00, 0x00, 0x02, 0x00, 0x00, 0x00, 0x04, 0x00, 0x00, 0x00, 0x06, 0x00, 0x00, 0x00, 0x32, 0x2e, 0x31, 0x38, 0x2e, 0x30, 0x00, 0x00, 0x56, 0xf7, 0xff, 0xff, 0x04, 0x00, 0x00, 0x00, 0x10, 0x00, 0x00, 0x00, 0x31, 0x2e, 0x31, 0x34, 0x2e, 0x30, 0x00, 0x00, 0x00, 0x00, 0x00, 0x00, 0x00, 0x00, 0x00, 0x00, 0x54, 0xf0, 0xff, 0xff, 0x58, 0xf0, 0xff, 0xff, 0x5c, 0xf0, 0xff, 0xff, 0x60, 0xf0, 0xff, 0xff, 0x64, 0xf0, 0xff, 0xff, 0x86, 0xf7, 0xff, 0xff, 0x04, 0x00, 0x00, 0x00, 0x80, 0x01, 0x00, 0x00, 0xce, 0x61, 0xa6, 0x3d, 0xe6, 0x2a, 0xef, 0x3b, 0x4f, 0xcd, 0x11, 0x3f, 0xfc, 0xf6, 0x81, 0x3e, 0x68, 0x07, 0x13, 0x3d, 0x3e, 0xab, 0xf7, 0x3e, 0xe0, 0x02, 0xdc, 0xbe, 0x99, 0xa4, 0x33, 0x3e, 0xf5, 0x7f, 0xa2, 0x3d, 0xe2, 0xc0, 0x0d, 0xbf, 0x18, 0x1a, 0x27, 0xbe, 0x42, 0x2a, 0xbb, 0x3e, 0xe0, 0xf0, 0x47, 0xbf, 0x08, 0x59, 0x8a, 0xbd, 0x6c, 0x68, 0x09, 0x3f, 0x56, 0xc6, 0x91, 0xbd, 0x2d, 0xa3, 0xaf, 0xbe, 0xa8, 0xfe, 0x7c, 0x3e, 0x0b, 0x45, 0x83, 0xbd, 0xfe, 0xe9, 0x5b, 0x3d, 0xb5, 0x2c, 0x68, 0x3e, 0x62, 0xbe, 0x6e, 0xbd, 0x4b, 0xf8, 0x8f, 0xbe, 0xa1, 0x2d, 0x01, 0x3f, 0x3a, 0x08, 0xac, 0xbe, 0xc3, 0x6d, 0xd0, 0xbe, 0xd9, 0x81, 0x40, 0xbf, 0x6b, 0xde, 0x44, 0x3e, 0x74, 0xc6, 0xf6, 0xbd, 0xee, 0xb4, 0xee, 0x3e, 0x19, 0x08, 0xca, 0x3e, 0xe3, 0x8f, 0xc5, 0x3e, 0xb8, 0x67, 0xef, 0x3e, 0x27, 0x3c, 0x2a, 0xbf, 0xb9, 0xab, 0x0a, 0xbf, 0x3e, 0xa5, 0xa5, 0x3d, 0xa1, 0xc7, 0x66, 0xbd, 0xc5, 0x98, 0x2d, 0xbf, 0x0a, 0x86, 0xba, 0x3e, 0x68, 0x71, 0x08, 0xbe, 0x60, 0x03, 0x1b, 0xbf, 0x95, 0x64, 0x89, 0xbe, 0x6d, 0x1e, 0xd4, 0xbe, 0xce, 0xcb, 0xe9, 0xbe, 0x25, 0xed, 0x6b, 0xbc, 0x5e, 0x7b, 0x74, 0xbe, 0xb1, 0x9e, 0xc1, 0x3e, 0x6a, 0x71, 0xed, 0xbc, 0x78, 0xfe, 0x37, 0x3e, 0x39, 0xa3, 0xba, 0xbe, 0xc7, 0xa3, 0x0d, 0x3d, 0xe1, 0x46, 0x26, 0x3f, 0x71, 0x83, 0x84, 0x3e, 0xd7, 0xe1, 0xaf, 0x3d, 0x80, 0xd2, 0x0a, 0x3f, 0xfe, 0x7c, 0x49, 0xbf, 0x9e, 0x48, 0x15, 0xbe, 0x0d, 0x27, 0x47, 0xbf, 0xc8, 0xb3, 0xe4, 0xbe, 0x4c, 0x7b, 0x52, 0xbd, 0x49, 0xb8, 0x30, 0x3e, 0xa4, 0x42, 0x38, 0xbf, 0xf0, 0x1f, 0xbd, 0xbd, 0x61, 0x6b, 0xa2, 0x3e, 0xd3, 0x17, 0x2e, 0x3f, 0x34, 0xb7, 0x85, 0xbb, 0xea, 0x24, 0x2f, 0x3f, 0x47, 0xd7, 0xc9, 0xbe, 0x2d, 0x37, 0xcf, 0xbe, 0x9e, 0x98, 0x83, 0x3e, 0x01, 0x27, 0xa5, 0xbe, 0x22, 0x78, 0xf8, 0xbe, 0x1c, 0xc8, 0xd7, 0x3e, 0xc7, 0xea, 0x7d, 0xbe, 0x25, 0xbf, 0xf4, 0xbe, 0x71, 0xde, 0x4f, 0x3e, 0x3a, 0x59, 0x71, 0x3d, 0x97, 0x69, 0x3d, 0x3e, 0x41, 0xe4, 0x10, 0xbf, 0xb3, 0xf9, 0x21, 0x3f, 0xda, 0xcd, 0x03, 0x3f, 0x11, 0x90, 0x19, 0x3f, 0x84, 0x4d, 0x8e, 0x3e, 0x5e, 0x86, 0x0f, 0xbf, 0x67, 0x25, 0x9f, 0x3e, 0x8b, 0x57, 0x13, 0x3f, 0x0b, 0x75, 0x1b, 0x3f, 0xb2, 0xba, 0xc0, 0xbc, 0x34, 0x5c, 0xce, 0x3e, 0xb7, 0x8f, 0x5b, 0xbe, 0xd6, 0xaa, 0xb9, 0xbe, 0xe2, 0x75, 0xa6, 0x3e, 0xec, 0x9d, 0x95, 0xbe, 0xc9, 0x8a, 0xcf, 0x3d, 0x98, 0x47, 0xe1, 0xbe, 0x23, 0x94, 0xe4, 0x3e, 0x12, 0xf9, 0xff, 0xff, 0x04, 0x00, 0x00, 0x00, 0x40, 0x00, 0x00, 0x00, 0x0c, 0x6b, 0x4e, 0x3e, 0x99, 0x4b, 0xe1, 0x3d, 0x91, 0xae, 0x94, 0x3c, 0x08, 0x2a, 0xb9, 0xbd, 0x50, 0xe4, 0x1e, 0xbe, 0xe3, 0x9c, 0x90, 0xbc, 0x7d, 0xfa, 0xdb, 0x3e, 0xd0, 0xc2, 0xa8, 0x3e, 0xf9, 0x64, 0x3f, 0x3e, 0x42, 0xfd, 0xa8, 0xbb, 0x64, 0xf1, 0xa8, 0x3e, 0x46, 0xfb, 0x80, 0x3e, 0x09, 0x35, 0x33, 0xbe, 0x36, 0x69, 0x0f, 0xbd, 0x1d, 0x5b, 0x32, 0xbd, 0x84, 0x7c, 0x59, 0x3e, 0x5e, 0xf9, 0xff, 0xff, 0x04, 0x00, 0x00, 0x00, 0x04, 0x00, 0x00, 0x00, 0x96, 0x04, 0x46, 0x3e, 0x6e, 0xf9, 0xff, 0xff, 0x04, 0x00, 0x00, 0x00, 0x40, 0x00, 0x00, 0x00, 0x4e, 0x34, 0x37, 0xbe, 0x9e, 0xde, 0xcb, 0xbd, 0x23, 0xa5, 0xcf, 0xbd, 0x7a, 0xf2, 0xa5, 0x3e, 0xad, 0xa5, 0xa0, 0xbd, 0x53, 0x88, 0x7f, 0xbe, 0x41, 0xa2, 0x51, 0xbe, 0x33, 0xc7, 0xb8, 0x3e, 0xb0, 0xcc, 0xa8, 0x3d, 0xd7, 0x2f, 0x73, 0x3e, 0x0f, 0x8e, 0x08, 0x3e, 0xd7, 0xe1, 0xaf, 0x3e, 0x12, 0x46, 0xdb, 0xbd, 0x31, 0x72, 0xea, 0x3e, 0x04, 0x5c, 0xc7, 0x3d, 0x51, 0x39, 0x99, 0xbd, 0xba, 0xf9, 0xff, 0xff, 0x04, 0x00, 0x00, 0x00, 0x20, 0x00, 0x00, 0x00, 0x5a, 0xe9, 0x91, 0x3e, 0x84, 0xb1, 0xf6, 0xbd, 0x55, 0x1f, 0xd0, 0xbd, 0xe4, 0x01, 0x8d, 0x3e, 0x6c, 0x6c, 0x58, 0x3e, 0xc0, 0x9d, 0x49, 0x3e, 0x1b, 0x0c, 0xf4, 0x3e, 0x56, 0x18, 0xa2, 0x3e, 0xe6, 0xf9, 0xff, 0xff, 0x04, 0x00, 0x00, 0x00, 0x00, 0x04, 0x00, 0x00, 0x07, 0x32, 0xf0, 0xbd, 0xf6, 0x83, 0xef, 0x3e, 0x4a, 0xf4, 0x46, 0xbc, 0xb5, 0xcc, 0xcf, 0xbe, 0x66, 0x4e, 0x1f, 0x3f, 0x1a, 0xfe, 0x19, 0x3f, 0x17, 0x32, 0xdc, 0xbe, 0x04, 0xb4, 0xd6, 0x3d, 0x5f, 0xa2, 0xaf, 0x3e, 0x30, 0x67, 0xa7, 0x3e, 0xd4, 0xe8, 0x6e, 0x3e, 0xad, 0xb2, 0x48, 0x3e, 0x10, 0x88, 0x02, 0x3f, 0x0a, 0x75, 0x16, 0x3f, 0x4f, 0x37, 0xda, 0x3e, 0xb4, 0xae, 0x2a, 0xbe, 0x3c, 0x8f, 0xc3, 0x3c, 0x84, 0x79, 0xb1, 0x3e, 0x9c, 0xd9, 0x30, 0x3e, 0x0f, 0xf0, 0x6e, 0x3e, 0xd5, 0xb4, 0x70, 0x3e, 0x63, 0x74, 0xc6, 0x3d, 0x08, 0x67, 0xd8, 0x3d, 0xb3, 0x67, 0x39, 0x3e, 0x0c, 0x15, 0x0b, 0xbf, 0x9b, 0x53, 0xcc, 0x3e, 0x5d, 0xb0, 0xf4, 0xbe, 0xa9, 0xfd, 0xd6, 0x3d, 0xdf, 0xef, 0x03, 0xbf, 0x16, 0x34, 0x49, 0x3e, 0x5c, 0xf4, 0x88, 0x3e, 0xd6, 0xf8, 0x97, 0x3e, 0xa3, 0x55, 0xa2, 0xbe, 0xe8, 0xe8, 0x8d, 0xbd, 0x92, 0xc9, 0x22, 0xbe, 0x0c, 0x55, 0xa7, 0xbe, 0x3c, 0xe0, 0xec, 0x3e, 0xcd, 0xd5, 0x3c, 0x3f, 0xd7, 0x7d, 0xc8, 0xbe, 0xd6, 0xc2, 0x68, 0xbe, 0xbe, 0x06, 0xa5, 0x3e, 0xba, 0xb7, 0x0a, 0x3e, 0x52, 0xb5, 0x05, 0x3f, 0xa0, 0x97, 0xdc, 0x3e, 0x87, 0x64, 0xc1, 0x3e, 0x02, 0xef, 0x13, 0x3e, 0x67, 0xf6, 0x6c, 0x3e, 0x4b, 0xfa, 0xab, 0xbe, 0x96, 0xa6, 0x87, 0x3d, 0x47, 0x36, 0x92, 0x3e, 0x3e, 0xee, 0xd2, 0xbe, 0x97, 0x0a, 0x3a, 0xbe, 0x1b, 0x4a, 0xe0, 0x3d, 0x79, 0xd4, 0xcb, 0xbe, 0x91, 0x85, 0x0b, 0x3f, 0x9b, 0x1f, 0x91, 0x3d, 0xb5, 0x3d, 0x97, 0x3e, 0xce, 0xfa, 0xb7, 0x3e, 0xfd, 0xe3, 0x29, 0x3e, 0x66, 0x71, 0x14, 0x3e, 0xfe, 0xd5, 0x1c, 0xbd, 0x40, 0xb2, 0x01, 0xbd, 0x38, 0xfa, 0xd6, 0xbe, 0xcb, 0x56, 0x17, 0x3e, 0xa7, 0x25, 0xef, 0xbe, 0x4b, 0xf3, 0x46, 0xbe, 0x43, 0xcd, 0xb5, 0x3b, 0x0d, 0xa5, 0xf6, 0x3d, 0xd3, 0x5a, 0x80, 0x3d, 0xcb, 0x0f, 0xbd, 0x3e, 0xe7, 0x5e, 0xd5, 0xbe, 0x04, 0x69, 0xa7, 0x3e, 0xd3, 0xb7, 0x7e, 0x3d, 0x94, 0x4d, 0x55, 0x3d, 0x73, 0xb6, 0xc1, 0xbe, 0x60, 0x40, 0x47, 0xbe, 0x9b, 0x6d, 0x5e, 0xbd, 0xb8, 0x19, 0x61, 0x3e, 0xcc, 0x1c, 0xa4, 0xbe, 0x71, 0x65, 0xd3, 0x3e, 0x36, 0x40, 0xa5, 0xbe, 0x13, 0x12, 0xbb, 0x3e, 0xca, 0x50, 0x89, 0x3e, 0xf4, 0x45, 0x8b, 0x3d, 0xa2, 0xbf, 0x17, 0xbe, 0x3b, 0xd9, 0x90, 0xbe, 0xb8, 0xde, 0xeb, 0xbd, 0xa8, 0xef, 0xbd, 0x3e, 0xab, 0xc1, 0xe1, 0xbd, 0x01, 0xfd, 0xe0, 0x3e, 0x50, 0xac, 0xa5, 0xbe, 0x16, 0xb3, 0x5b, 0x3e, 0x4d, 0x8c, 0x94, 0x3e, 0xa2, 0xfe, 0x49, 0xbe, 0x24, 0x90, 0x7c, 0x3d, 0x06, 0x74, 0x26, 0x3e, 0x74, 0xf7, 0x94, 0x3d, 0xa1, 0x39, 0x82, 0x3e, 0x4d, 0x36, 0xb3, 0x3e, 0x82, 0x8f, 0xe7, 0xbe, 0x84, 0x2f, 0x05, 0x3f, 0xe4, 0x85, 0x29, 0x3f, 0x71, 0x2f, 0x9c, 0xbd, 0x41, 0x9c, 0x4f, 0x3e, 0xd4, 0x55, 0x87, 0x3e, 0x44, 0xa4, 0xa7, 0x3e, 0x67, 0x87, 0x05, 0xbe, 0xe7, 0x79, 0x2c, 0xbb, 0x2c, 0x3a, 0x0d, 0x3f, 0x35, 0x8f, 0xca, 0x3e, 0x50, 0xdd, 0x26, 0x3f, 0xfa, 0x35, 0x22, 0x3e, 0x3c, 0x9d, 0xfd, 0x3d, 0x0c, 0x58, 0x03, 0xbd, 0xd3, 0x7b, 0x02, 0xbd, 0x21, 0x7c, 0x0b, 0xbf, 0x73, 0xc4, 0xf3, 0xbe, 0xc8, 0xe5, 0x10, 0xbf, 0x75, 0x03, 0x9f, 0x3e, 0xc5, 0xc7, 0xe7, 0x3e, 0xf8, 0x32, 0xe6, 0x3c, 0xd7, 0x0a, 0x31, 0x3e, 0x6a, 0x84, 0x86, 0xbe, 0xc5, 0xc5, 0x05, 0x3e, 0xe8, 0x32, 0xbc, 0xbe, 0x5f, 0x25, 0xb9, 0xbe, 0xb5, 0xf3, 0x2d, 0xbe, 0x44, 0x01, 0x1e, 0x3d, 0x35, 0x45, 0xd3, 0x3e, 0x27, 0x84, 0xa0, 0x3d, 0xb4, 0x23, 0x08, 0xbf, 0xd8, 0xa0, 0xbb, 0x3e, 0x6e, 0x76, 0xb1, 0x3e, 0x19, 0x8d, 0x94, 0xbe, 0xaf, 0xf5, 0x49, 0x3e, 0x93, 0xa6, 0xea, 0xbe, 0xc7, 0x90, 0x76, 0x3e, 0x40, 0x8d, 0x04, 0x3e, 0xd9, 0x46, 0xa4, 0xbe, 0xad, 0xea, 0xde, 0xbe, 0x51, 0xb4, 0x85, 0x3e, 0xe3, 0x51, 0x7f, 0x3e, 0xa4, 0xad, 0x57, 0x3d, 0x60, 0xbb, 0x63, 0xbe, 0x46, 0xc6, 0xce, 0x3d, 0xc8, 0x57, 0x2a, 0x3e, 0x77, 0x0b, 0xba, 0xbe, 0xf9, 0x93, 0x1c, 0xbe, 0x18, 0x3f, 0xc2, 0x3e, 0xe9, 0x9b, 0x8d, 0xbe, 0xee, 0xc1, 0xf7, 0xbd, 0x0f, 0xce, 0x84, 0x3d, 0x11, 0xbd, 0x0c, 0xbf, 0x9b, 0x27, 0x9f, 0xbe, 0x6b, 0x10, 0xc5, 0xbd, 0x92, 0xba, 0xa2, 0x3e, 0x5a, 0x48, 0x64, 0xbe, 0xad, 0x78, 0xdd, 0x3d, 0x0c, 0x1d, 0xce, 0xbd, 0x5c, 0xb1, 0x71, 0x3e, 0xc0, 0x44, 0x25, 0x3d, 0xf6, 0xab, 0xb6, 0xbe, 0x8f, 0x45, 0xb1, 0xbe, 0xa8, 0x68, 0xe6, 0xbe, 0x03, 0x2d, 0xda, 0xbe, 0xb2, 0xd7, 0xb6, 0xbd, 0xfb, 0x09, 0xb2, 0x3e, 0xeb, 0xb9, 0x23, 0x3f, 0xd7, 0x1e, 0x72, 0xbe, 0x79, 0x4d, 0x05, 0x3e, 0x3f, 0xf0, 0x9b, 0x3e, 0xdf, 0xf2, 0x1f, 0xbc, 0x60, 0xcf, 0x1f, 0xbe, 0x29, 0x48, 0x1c, 0xbf, 0x5f, 0xc7, 0xfd, 0x3d, 0x86, 0xf8, 0x7e, 0xbd, 0x4d, 0xc3, 0xba, 0x3e, 0x74, 0xf3, 0x66, 0x3d, 0xf8, 0xe1, 0xde, 0xbe, 0xf1, 0x1e, 0xf5, 0x3e, 0xe5, 0x9f, 0xd9, 0xbd, 0x23, 0x9d, 0x57, 0x3d, 0x3c, 0x82, 0x2c, 0x3f, 0x58, 0xb5, 0xe4, 0x3e, 0xdf, 0xcf, 0xf2, 0x3d, 0xfb, 0xb9, 0x9c, 0x3d, 0xb3, 0x4e, 0x1a, 0x3c, 0xc7, 0xa9, 0x09, 0x3d, 0x89, 0x6f, 0x2b, 0x3e, 0x31, 0xb0, 0x3c, 0xbd, 0x4e, 0xf7, 0x03, 0x3e, 0x54, 0xed, 0x22, 0xbd, 0x02, 0x35, 0x15, 0x3f, 0x5d, 0x4e, 0xc8, 0xbd, 0xf8, 0x45, 0x4a, 0x3f, 0x0d, 0x4d, 0x8a, 0xbd, 0x67, 0xa2, 0xef, 0xbd, 0xa1, 0x9b, 0xbe, 0x3d, 0xcd, 0xcb, 0x25, 0xbf, 0x0d, 0xac, 0xf1, 0x3d, 0x31, 0x33, 0x34, 0xbd, 0x8c, 0x3e, 0x7d, 0x3e, 0xab, 0x31, 0xb0, 0xbb, 0x26, 0x75, 0x11, 0x3f, 0xcc, 0x95, 0x08, 0x3f, 0x57, 0x0b, 0x26, 0x3f, 0x41, 0xb5, 0x89, 0xbd, 0x4a, 0xb7, 0x96, 0xbe, 0xa6, 0x53, 0xe0, 0x3e, 0xd3, 0x08, 0x40, 0x3e, 0x2f, 0xb7, 0xc2, 0xbd, 0xc8, 0x7a, 0x1c, 0xbe, 0xea, 0xf0, 0x53, 0x3d, 0xfb, 0x2d, 0x09, 0x3e, 0x7c, 0x8b, 0x2c, 0x3f, 0x82, 0x06, 0x4b, 0x3e, 0xa4, 0x54, 0xa5, 0x3e, 0x23, 0xbb, 0xd2, 0x3e, 0xef, 0xf9, 0x58, 0x3e, 0xa2, 0xc3, 0x02, 0x3f, 0x58, 0x87, 0x0c, 0xbe, 0x22, 0xcf, 0x0d, 0x3e, 0xdd, 0xf8, 0x23, 0x3e, 0xf4, 0xcc, 0xf5, 0x3e, 0x8d, 0xfb, 0xc0, 0xbe, 0x6f, 0x8e, 0xbd, 0x3e, 0xa1, 0x18, 0xff, 0xbe, 0x9d, 0x12, 0xe2, 0xbe, 0xe1, 0x0f, 0x07, 0xbe, 0x00, 0xd6, 0xc3, 0x3e, 0x32, 0x12, 0xb1, 0xbe, 0x94, 0x28, 0x98, 0xbe, 0xfa, 0x47, 0x82, 0xbe, 0x2b, 0xbe, 0x14, 0x3f, 0xf8, 0xf3, 0xc8, 0xbe, 0x39, 0x03, 0x42, 0x3d, 0xa5, 0x7a, 0x2d, 0x3e, 0x1c, 0x38, 0x42, 0xbd, 0x01, 0x13, 0xec, 0x3e, 0x12, 0xa1, 0x20, 0xbe, 0x1e, 0xaf, 0x81, 0x3c, 0x23, 0x43, 0x9e, 0xbd, 0x8e, 0x8e, 0x32, 0x3d, 0x0b, 0x5f, 0xe2, 0x3e, 0x74, 0x18, 0x12, 0x3c, 0x98, 0x47, 0x4d, 0xbe, 0xa1, 0x68, 0x75, 0x3d, 0x52, 0xe8, 0x80, 0xbc, 0xa0, 0xec, 0x8c, 0xbe, 0xe0, 0xf6, 0x1d, 0xbf, 0xfc, 0x81, 0xe5, 0xbd, 0xaf, 0x5a, 0x4a, 0xbe, 0xa1, 0x01, 0x0a, 0xbf, 0x8c, 0xcb, 0x02, 0x3f, 0xb1, 0xc8, 0x10, 0x3f, 0x72, 0xe9, 0x0b, 0x3e, 0xf2, 0xfd, 0xff, 0xff, 0x04, 0x00, 0x00, 0x00, 0x00, 0x02, 0x00, 0x00, 0x2c, 0x86, 0x23, 0xbf, 0xe2, 0xb7, 0xa0, 0x3e, 0x37, 0xc9, 0x31, 0xbf, 0x05, 0xe0, 0x04, 0x3f, 0xcb, 0xa3, 0x5d, 0x3c, 0x46, 0xaa, 0x3e, 0xbf, 0xd5, 0x32, 0xac, 0xbb, 0xfd, 0xb2, 0xc2, 0x3e, 0xa3, 0xe6, 0x41, 0x3e, 0x7d, 0xd9, 0x18, 0x3f, 0x18, 0x3d, 0x69, 0x3e, 0x51, 0xdb, 0xf3, 0x3e, 0x7c, 0xea, 0x54, 0xbe, 0xac, 0xd9, 0x42, 0x3e, 0x1a, 0xf0, 0x1b, 0xbf, 0xa2, 0x7f, 0x2c, 0xbf, 0x37, 0x92, 0x48, 0x3f, 0xc6, 0xc8, 0x0e, 0x3f, 0x59, 0xad, 0x42, 0x3f, 0xe1, 0x8b, 0x5f, 0xbe, 0x56, 0xf4, 0xf8, 0x3d, 0x7b, 0xf8, 0x50, 0x3e, 0x31, 0xbe, 0x3c, 0x3f, 0x52, 0x3b, 0x4c, 0xbf, 0xe0, 0xba, 0x9c, 0xbe, 0xce, 0x96, 0x85, 0xbe, 0xe4, 0x9b, 0x1f, 0xbf, 0x83, 0x1d, 0x6e, 0x3d, 0x72, 0xfc, 0x54, 0x3f, 0x32, 0x92, 0xc0, 0x3e, 0xd7, 0x9e, 0x80, 0x3f, 0x9e, 0xe8, 0x2d, 0x3f, 0xca, 0xc9, 0xb1, 0x3e, 0x85, 0x71, 0x5e, 0xbe, 0x98, 0xc6, 0x98, 0xbe, 0xd9, 0x7b, 0xed, 0x3d, 0xe3, 0xfb, 0xcc, 0x3e, 0x40, 0x65, 0x4b, 0x3e, 0x67, 0x91, 0x0d, 0x3e, 0xed, 0xf3, 0x80, 0xbe, 0x51, 0x11, 0xea, 0xbe, 0xad, 0x22, 0x2f, 0x3c, 0xe2, 0x23, 0x3f, 0xbe, 0x2e, 0x16, 0x89, 0x3d, 0xac, 0x5f, 0xcb, 0x3d, 0x9b, 0x65, 0x1b, 0xbf, 0xa4, 0x83, 0x1d, 0x3e, 0x41, 0x14, 0x24, 0x3e, 0xfb, 0x42, 0xc8, 0x3c, 0x27, 0x23, 0xec, 0xbe, 0xc4, 0x8f, 0x4f, 0xbf, 0x77, 0x62, 0x7b, 0xbd, 0x54, 0xfa, 0x08, 0xbd, 0xd6, 0xd7, 0xb8, 0xbd, 0xdc, 0x78, 0x5d, 0x3d, 0x6b, 0x1d, 0xb0, 0x3e, 0xc9, 0x96, 0xc5, 0x3d, 0xe1, 0x90, 0x49, 0xbe, 0xd8, 0xe4, 0x59, 0x3f, 0xe2, 0x09, 0x21, 0x3f, 0xe6, 0xb3, 0xf0, 0xbe, 0xb8, 0xbc, 0xbd, 0x3e, 0x20, 0xb8, 0xbf, 0xbe, 0xb9, 0xed, 0x11, 0x3e, 0x2d, 0x51, 0xd2, 0xbe, 0xd6, 0xa7, 0x8b, 0xbe, 0xde, 0x9d, 0x14, 0xbf, 0xab, 0x79, 0xbb, 0x3d, 0x4d, 0xa5, 0xe6, 0x3e, 0x20, 0x89, 0x4e, 0xbf, 0x05, 0x0d, 0x8a, 0x3e, 0x57, 0x88, 0x75, 0x3e, 0x62, 0x7e, 0x8d, 0xbe, 0x7c, 0xbc, 0xb8, 0x3d, 0xe5, 0xd1, 0xa8, 0x3e, 0xc7, 0x5f, 0x95, 0x3e, 0x65, 0x20, 0x17, 0xbe, 0xda, 0xc0, 0x04, 0x3f, 0xbc, 0x75, 0x36, 0xbf, 0x12, 0x71, 0x72, 0xbe, 0xba, 0x6b, 0x6d, 0x3d, 0x47, 0x0c, 0x6a, 0xbe, 0x5e, 0xc1, 0x97, 0xbe, 0xe3, 0xa6, 0x7b, 0x3e, 0xb0, 0x95, 0x93, 0xbe, 0x4a, 0x56, 0x48, 0xbf, 0x08, 0xfa, 0x88, 0xbe, 0x95, 0xc3, 0xb4, 0x3e, 0x8e, 0x6a, 0xfa, 0x3e, 0x38, 0xe8, 0xda, 0x3e, 0x13, 0x83, 0x34, 0x3f, 0x03, 0xa2, 0x49, 0xbd, 0xc8, 0x92, 0x82, 0x3d, 0xbf, 0x44, 0xa9, 0x3e, 0x6e, 0x95, 0x15, 0xbf, 0x76, 0xae, 0x8c, 0xbe, 0x43, 0x4e, 0x1f, 0xbf, 0x1e, 0x07, 0x04, 0xbf, 0xcf, 0x26, 0x45, 0xbf, 0xf1, 0x8d, 0xfe, 0x3e, 0x91, 0xfc, 0x3b, 0xbe, 0x1e, 0xf3, 0x51, 0xbe, 0x87, 0xbf, 0x34, 0xbf, 0xe9, 0x0a, 0x3e, 0x3f, 0x78, 0x46, 0xa9, 0xbe, 0x4f, 0x49, 0xe2, 0x3e, 0x0b, 0xbf, 0x0f, 0x3f, 0xb6, 0x7e, 0x7f, 0x3e, 0x53, 0x52, 0x8b, 0xbe, 0x36, 0x6f, 0xf4, 0x3e, 0xb2, 0xaf, 0x4a, 0x3c, 0x18, 0xa8, 0xe8, 0xbd, 0x6e, 0x5d, 0x62, 0xbe, 0x5d, 0x89, 0xae, 0x3e, 0xc4, 0x3e, 0xba, 0xbe, 0x49, 0xd4, 0xc3, 0x3e, 0x7c, 0x38, 0xf7, 0x3e, 0xb7, 0x0b, 0x4e, 0x3d, 0x25, 0x4f, 0x8a, 0xbe, 0x51, 0x8f, 0x19, 0x3f, 0x42, 0x33, 0x28, 0x3e, 0xf1, 0xb4, 0x29, 0x3e, 0xb9, 0xa0, 0xdb, 0x3e, 0x79, 0x8c, 0x83, 0xbe, 0x74, 0xa8, 0x4f, 0xbf, 0xa1, 0xe3, 0xea, 0x3e, 0x3d, 0xf9, 0x16, 0xbf, 0x42, 0x12, 0xbb, 0xbe, 0x00, 0x00, 0x06, 0x00, 0x08, 0x00, 0x04, 0x00, 0x06, 0x00, 0x00, 0x00, 0x04, 0x00, 0x00, 0x00, 0x20, 0x00, 0x00, 0x00, 0x34, 0x21, 0x8f, 0x3f, 0x73, 0x95, 0x95, 0xbf, 0x1a, 0xd6, 0xd3, 0x3e, 0x0c, 0x15, 0xf1, 0x3e, 0xd9, 0x01, 0x45, 0x3f, 0xee, 0xd5, 0xd1, 0x3e, 0xdb, 0xd6, 0x6e, 0x3f, 0xc3, 0xc7, 0xbe, 0x3e, 0x14, 0xf9, 0xff, 0xff, 0x18, 0xf9, 0xff, 0xff, 0x0f, 0x00, 0x00, 0x00, 0x4d, 0x4c, 0x49, 0x52, 0x20, 0x43, 0x6f, 0x6e, 0x76, 0x65, 0x72, 0x74, 0x65, 0x64, 0x2e, 0x00, 0x01, 0x00, 0x00, 0x00, 0x14, 0x00, 0x00, 0x00, 0x00, 0x00, 0x0e, 0x00, 0x18, 0x00, 0x14, 0x00, 0x10, 0x00, 0x0c, 0x00, 0x08, 0x00, 0x04, 0x00, 0x0e, 0x00, 0x00, 0x00, 0x14, 0x00, 0x00, 0x00, 0x1c, 0x00, 0x00, 0x00, 0x40, 0x01, 0x00, 0x00, 0x44, 0x01, 0x00, 0x00, 0x48, 0x01, 0x00, 0x00, 0x04, 0x00, 0x00, 0x00, 0x6d, 0x61, 0x69, 0x6e, 0x00, 0x00, 0x00, 0x00, 0x05, 0x00, 0x00, 0x00, 0xe8, 0x00, 0x00, 0x00, 0xa0, 0x00, 0x00, 0x00, 0x68, 0x00, 0x00, 0x00, 0x34, 0x00, 0x00, 0x00, 0x10, 0x00, 0x00, 0x00, 0x00, 0x00, 0x0a, 0x00, 0x10, 0x00, 0x0c, 0x00, 0x08, 0x00, 0x04, 0x00, 0x0a, 0x00, 0x00, 0x00, 0x0c, 0x00, 0x00, 0x00, 0x10, 0x00, 0x00, 0x00, 0x01, 0x00, 0x00, 0x00, 0x01, 0x00, 0x00, 0x00, 0x0d, 0x00, 0x00, 0x00, 0x01, 0x00, 0x00, 0x00, 0x0c, 0x00, 0x00, 0x00, 0x66, 0xff, 0xff, 0xff, 0x10, 0x00, 0x00, 0x00, 0x00, 0x00, 0x00, 0x08, 0x0c, 0x00, 0x00, 0x00, 0x10, 0x00, 0x00, 0x00, 0xc4, 0xf9, 0xff, 0xff, 0x01, 0x00, 0x00, 0x00, 0x0c, 0x00, 0x00, 0x00, 0x03, 0x00, 0x00, 0x00, 0x0b, 0x00, 0x00, 0x00, 0x01, 0x00, 0x00, 0x00, 0x06, 0x00, 0x00, 0x00, 0x96, 0xff, 0xff, 0xff, 0x10, 0x00, 0x00, 0x00, 0x00, 0x00, 0x00, 0x08, 0x10, 0x00, 0x00, 0x00, 0x14, 0x00, 0x00, 0x00, 0x86, 0xff, 0xff, 0xff, 0x00, 0x00, 0x00, 0x01, 0x01, 0x00, 0x00, 0x00, 0x0b, 0x00, 0x00, 0x00, 0x03, 0x00, 0x00, 0x00, 0x0a, 0x00, 0x00, 0x00, 0x02, 0x00, 0x00, 0x00, 0x04, 0x00, 0x00, 0x00, 0xca, 0xff, 0xff, 0xff, 0x10, 0x00, 0x00, 0x00, 0x00, 0x00, 0x00, 0x08, 0x10, 0x00, 0x00, 0x00, 0x14, 0x00, 0x00, 0x00, 0xba, 0xff, 0xff, 0xff, 0x00, 0x00, 0x00, 0x01, 0x01, 0x00, 0x00, 0x00, 0x0a, 0x00, 0x00, 0x00, 0x03, 0x00, 0x00, 0x00, 0x09, 0x00, 0x00, 0x00, 0x03, 0x00, 0x00, 0x00, 0x05, 0x00, 0x00, 0x00, 0x00, 0x00, 0x0e, 0x00, 0x16, 0x00, 0x00, 0x00, 0x10, 0x00, 0x0c, 0x00, 0x0b, 0x00, 0x04, 0x00, 0x0e, 0x00, 0x00, 0x00, 0x18, 0x00, 0x00, 0x00, 0x00, 0x00, 0x00, 0x08, 0x18, 0x00, 0x00, 0x00, 0x1c, 0x00, 0x00, 0x00, 0x00, 0x00, 0x06, 0x00, 0x08, 0x00, 0x07, 0x00, 0x06, 0x00, 0x00, 0x00, 0x00, 0x00, 0x00, 0x01, 0x01, 0x00, 0x00, 0x00, 0x09, 0x00, 0x00, 0x00, 0x03, 0x00, 0x00, 0x00, 0x00, 0x00, 0x00, 0x00, 0x08, 0x00, 0x00, 0x00, 0x07, 0x00, 0x00, 0x00, 0x01, 0x00, 0x00, 0x00, 0x0d, 0x00, 0x00, 0x00, 0x01, 0x00, 0x00, 0x00, 0x00, 0x00, 0x00, 0x00, 0x0e, 0x00, 0x00, 0x00, 0x30, 0x05, 0x00, 0x00, 0xd8, 0x04, 0x00, 0x00, 0x80, 0x04, 0x00, 0x00, 0x40, 0x04, 0x00, 0x00, 0x04, 0x04, 0x00, 0x00, 0xc8, 0x03, 0x00, 0x00, 0x6c, 0x03, 0x00, 0x00, 0x10, 0x03, 0x00, 0x00, 0xc0, 0x02, 0x00, 0x00, 0x20, 0x02, 0x00, 0x00, 0x80, 0x01, 0x00, 0x00, 0xe0, 0x00, 0x00, 0x00, 0x60, 0x00, 0x00, 0x00, 0x04, 0x00, 0x00, 0x00, 0x1e, 0xfb, 0xff, 0xff, 0x00, 0x00, 0x00, 0x01, 0x14, 0x00, 0x00, 0x00, 0x1c, 0x00, 0x00, 0x00, 0x1c, 0x00, 0x00, 0x00, 0x0e, 0x00, 0x00, 0x00, 0x34, 0x00, 0x00, 0x00, 0x02, 0x00, 0x00, 0x00, 0xff, 0xff, 0xff, 0xff, 0x01, 0x00, 0x00, 0x00, 0x08, 0xfb, 0xff, 0xff, 0x1b, 0x00, 0x00, 0x00, 0x53, 0x74, 0x61, 0x74, 0x65, 0x66, 0x75, 0x6c, 0x50, 0x61, 0x72, 0x74, 0x69, 0x74, 0x69, 0x6f, 0x6e, 0x65, 0x64, 0x43, 0x61, 0x6c, 0x6c, 0x5f, 0x31, 0x3a, 0x30, 0x00, 0x02, 0x00, 0x00, 0x00, 0x01, 0x00, 0x00, 0x00, 0x01, 0x00, 0x00, 0x00, 0x76, 0xfb, 0xff, 0xff, 0x00, 0x00, 0x00, 0x01, 0x14, 0x00, 0x00, 0x00, 0x1c, 0x00, 0x00, 0x00, 0x1c, 0x00, 0x00, 0x00, 0x0d, 0x00, 0x00, 0x00, 0x58, 0x00, 0x00, 0x00, 0x02, 0x00, 0x00, 0x00, 0xff, 0xff, 0xff, 0xff, 0x01, 0x00, 0x00, 0x00, 0x60, 0xfb, 0xff, 0xff, 0x3e, 0x00, 0x00, 0x00, 0x73, 0x65, 0x71, 0x75, 0x65, 0x6e, 0x74, 0x69, 0x61, 0x6c, 0x5f, 0x32, 0x5f, 0x31, 0x2f, 0x64, 0x65, 0x6e, 0x73, 0x65, 0x5f, 0x31, 0x30, 0x5f, 0x31, 0x2f, 0x4d, 0x61, 0x74, 0x4d, 0x75, 0x6c, 0x3b, 0x73, 0x65, 0x71, 0x75, 0x65, 0x6e, 0x74, 0x69, 0x61, 0x6c, 0x5f, 0x32, 0x5f, 0x31, 0x2f, 0x64, 0x65, 0x6e, 0x73, 0x65, 0x5f, 0x31, 0x30, 0x5f, 0x31, 0x2f, 0x41, 0x64, 0x64, 0x00, 0x00, 0x02, 0x00, 0x00, 0x00, 0x01, 0x00, 0x00, 0x00, 0x01, 0x00, 0x00, 0x00, 0xf2, 0xfb, 0xff, 0xff, 0x00, 0x00, 0x00, 0x01, 0x14, 0x00, 0x00, 0x00, 0x1c, 0x00, 0x00, 0x00, 0x1c, 0x00, 0x00, 0x00, 0x0c, 0x00, 0x00, 0x00, 0x78, 0x00, 0x00, 0x00, 0x02, 0x00, 0x00, 0x00, 0xff, 0xff, 0xff, 0xff, 0x08, 0x00, 0x00, 0x00, 0xdc, 0xfb, 0xff, 0xff, 0x5e, 0x00, 0x00, 0x00, 0x73, 0x65, 0x71, 0x75, 0x65, 0x6e, 0x74, 0x69, 0x61, 0x6c, 0x5f, 0x32, 0x5f, 0x31, 0x2f, 0x64, 0x65, 0x6e, 0x73, 0x65, 0x5f, 0x39, 0x5f, 0x31, 0x2f, 0x4d, 0x61, 0x74, 0x4d, 0x75, 0x6c, 0x3b, 0x73, 0x65, 0x71, 0x75, 0x65, 0x6e, 0x74, 0x69, 0x61, 0x6c, 0x5f, 0x32, 0x5f, 0x31, 0x2f, 0x64, 0x65, 0x6e, 0x73, 0x65, 0x5f, 0x39, 0x5f, 0x31, 0x2f, 0x52, 0x65, 0x6c, 0x75, 0x3b, 0x73, 0x65, 0x71, 0x75, 0x65, 0x6e, 0x74, 0x69, 0x61, 0x6c, 0x5f, 0x32, 0x5f, 0x31, 0x2f, 0x64, 0x65, 0x6e, 0x73, 0x65, 0x5f, 0x39, 0x5f, 0x31, 0x2f, 0x42, 0x69, 0x61, 0x73, 0x41, 0x64, 0x64, 0x00, 0x00, 0x02, 0x00, 0x00, 0x00, 0x01, 0x00, 0x00, 0x00, 0x08, 0x00, 0x00, 0x00, 0x8e, 0xfc, 0xff, 0xff, 0x00, 0x00, 0x00, 0x01, 0x14, 0x00, 0x00, 0x00, 0x1c, 0x00, 0x00, 0x00, 0x1c, 0x00, 0x00, 0x00, 0x0b, 0x00, 0x00, 0x00, 0x78, 0x00, 0x00, 0x00, 0x02, 0x00, 0x00, 0x00, 0xff, 0xff, 0xff, 0xff, 0x10, 0x00, 0x00, 0x00, 0x78, 0xfc, 0xff, 0xff, 0x5e, 0x00, 0x00, 0x00, 0x73, 0x65, 0x71, 0x75, 0x65, 0x6e, 0x74, 0x69, 0x61, 0x6c, 0x5f, 0x32, 0x5f, 0x31, 0x2f, 0x64, 0x65, 0x6e, 0x73, 0x65, 0x5f, 0x38, 0x5f, 0x31, 0x2f, 0x4d, 0x61, 0x74, 0x4d, 0x75, 0x6c, 0x3b, 0x73, 0x65, 0x71, 0x75, 0x65, 0x6e, 0x74, 0x69, 0x61, 0x6c, 0x5f, 0x32, 0x5f, 0x31, 0x2f, 0x64, 0x65, 0x6e, 0x73, 0x65, 0x5f, 0x38, 0x5f, 0x31, 0x2f, 0x52, 0x65, 0x6c, 0x75, 0x3b, 0x73, 0x65, 0x71, 0x75, 0x65, 0x6e, 0x74, 0x69, 0x61, 0x6c, 0x5f, 0x32, 0x5f, 0x31, 0x2f, 0x64, 0x65, 0x6e, 0x73, 0x65, 0x5f, 0x38, 0x5f, 0x31, 0x2f, 0x42, 0x69, 0x61, 0x73, 0x41, 0x64, 0x64, 0x00, 0x00, 0x02, 0x00, 0x00, 0x00, 0x01, 0x00, 0x00, 0x00, 0x10, 0x00, 0x00, 0x00, 0x2a, 0xfd, 0xff, 0xff, 0x00, 0x00, 0x00, 0x01, 0x14, 0x00, 0x00, 0x00, 0x1c, 0x00, 0x00, 0x00, 0x1c, 0x00, 0x00, 0x00, 0x0a, 0x00, 0x00, 0x00, 0x78, 0x00, 0x00, 0x00, 0x02, 0x00, 0x00, 0x00, 0xff, 0xff, 0xff, 0xff, 0x10, 0x00, 0x00, 0x00, 0x14, 0xfd, 0xff, 0xff, 0x5e, 0x00, 0x00, 0x00, 0x73, 0x65, 0x71, 0x75, 0x65, 0x6e, 0x74, 0x69, 0x61, 0x6c, 0x5f, 0x32, 0x5f, 0x31, 0x2f, 0x64, 0x65, 0x6e, 0x73, 0x65, 0x5f, 0x37, 0x5f, 0x31, 0x2f, 0x4d, 0x61, 0x74, 0x4d, 0x75, 0x6c, 0x3b, 0x73, 0x65, 0x71, 0x75, 0x65, 0x6e, 0x74, 0x69, 0x61, 0x6c, 0x5f, 0x32, 0x5f, 0x31, 0x2f, 0x64, 0x65, 0x6e, 0x73, 0x65, 0x5f, 0x37, 0x5f, 0x31, 0x2f, 0x52, 0x65, 0x6c, 0x75, 0x3b, 0x73, 0x65, 0x71, 0x75, 0x65, 0x6e, 0x74, 0x69, 0x61, 0x6c, 0x5f, 0x32, 0x5f, 0x31, 0x2f, 0x64, 0x65, 0x6e, 0x73, 0x65, 0x5f, 0x37, 0x5f, 0x31, 0x2f, 0x42, 0x69, 0x61, 0x73, 0x41, 0x64, 0x64, 0x00, 0x00, 0x02, 0x00, 0x00, 0x00, 0x01, 0x00, 0x00, 0x00, 0x10, 0x00, 0x00, 0x00, 0x1a, 0xfe, 0xff, 0xff, 0x00, 0x00, 0x00, 0x01, 0x10, 0x00, 0x00, 0x00, 0x10, 0x00, 0x00, 0x00, 0x09, 0x00, 0x00, 0x00, 0x2c, 0x00, 0x00, 0x00, 0xa0, 0xfd, 0xff, 0xff, 0x1f, 0x00, 0x00, 0x00, 0x73, 0x65, 0x71, 0x75, 0x65, 0x6e, 0x74, 0x69, 0x61, 0x6c, 0x5f, 0x32, 0x5f, 0x31, 0x2f, 0x64, 0x65, 0x6e, 0x73, 0x65, 0x5f, 0x37, 0x5f, 0x31, 0x2f, 0x4d, 0x61, 0x74, 0x4d, 0x75, 0x6c, 0x00, 0x02, 0x00, 0x00, 0x00, 0x10, 0x00, 0x00, 0x00, 0x06, 0x00, 0x00, 0x00, 0x66, 0xfe, 0xff, 0xff, 0x00, 0x00, 0x00, 0x01, 0x10, 0x00, 0x00, 0x00, 0x10, 0x00, 0x00, 0x00, 0x08, 0x00, 0x00, 0x00, 0x3c, 0x00, 0x00, 0x00, 0xec, 0xfd, 0xff, 0xff, 0x2f, 0x00, 0x00, 0x00, 0x73, 0x65, 0x71, 0x75, 0x65, 0x6e, 0x74, 0x69, 0x61, 0x6c, 0x5f, 0x32, 0x5f, 0x31, 0x2f, 0x64, 0x65, 0x6e, 0x73, 0x65, 0x5f, 0x37, 0x5f, 0x31, 0x2f, 0x42, 0x69, 0x61, 0x73, 0x41, 0x64, 0x64, 0x2f, 0x52, 0x65, 0x61, 0x64, 0x56, 0x61, 0x72, 0x69, 0x61, 0x62, 0x6c, 0x65, 0x4f, 0x70, 0x00, 0x01, 0x00, 0x00, 0x00, 0x10, 0x00, 0x00, 0x00, 0xbe, 0xfe, 0xff, 0xff, 0x00, 0x00, 0x00, 0x01, 0x10, 0x00, 0x00, 0x00, 0x10, 0x00, 0x00, 0x00, 0x07, 0x00, 0x00, 0x00, 0x3c, 0x00, 0x00, 0x00, 0x44, 0xfe, 0xff, 0xff, 0x2c, 0x00, 0x00, 0x00, 0x73, 0x65, 0x71, 0x75, 0x65, 0x6e, 0x74, 0x69, 0x61, 0x6c, 0x5f, 0x32, 0x5f, 0x31, 0x2f, 0x64, 0x65, 0x6e, 0x73, 0x65, 0x5f, 0x31, 0x30, 0x5f, 0x31, 0x2f, 0x41, 0x64, 0x64, 0x2f, 0x52, 0x65, 0x61, 0x64, 0x56, 0x61, 0x72, 0x69, 0x61, 0x62, 0x6c, 0x65, 0x4f, 0x70, 0x00, 0x00, 0x00, 0x00, 0x01, 0x00, 0x00, 0x00, 0x01, 0x00, 0x00, 0x00, 0x16, 0xff, 0xff, 0xff, 0x00, 0x00, 0x00, 0x01, 0x10, 0x00, 0x00, 0x00, 0x10, 0x00, 0x00, 0x00, 0x06, 0x00, 0x00, 0x00, 0x1c, 0x00, 0x00, 0x00, 0x9c, 0xfe, 0xff, 0xff, 0x0f, 0x00, 0x00, 0x00, 0x61, 0x72, 0x69, 0x74, 0x68, 0x2e, 0x63, 0x6f, 0x6e, 0x73, 0x74, 0x61, 0x6e, 0x74, 0x34, 0x00, 0x01, 0x00, 0x00, 0x00, 0x10, 0x00, 0x00, 0x00, 0x4e, 0xff, 0xff, 0xff, 0x00, 0x00, 0x00, 0x01, 0x10, 0x00, 0x00, 0x00, 0x10, 0x00, 0x00, 0x00, 0x05, 0x00, 0x00, 0x00, 0x1c, 0x00, 0x00, 0x00, 0xd4, 0xfe, 0xff, 0xff, 0x0f, 0x00, 0x00, 0x00, 0x61, 0x72, 0x69, 0x74, 0x68, 0x2e, 0x63, 0x6f, 0x6e, 0x73, 0x74, 0x61, 0x6e, 0x74, 0x33, 0x00, 0x01, 0x00, 0x00, 0x00, 0x08, 0x00, 0x00, 0x00, 0x86, 0xff, 0xff, 0xff, 0x00, 0x00, 0x00, 0x01, 0x10, 0x00, 0x00, 0x00, 0x10, 0x00, 0x00, 0x00, 0x04, 0x00, 0x00, 0x00, 0x1c, 0x00, 0x00, 0x00, 0x0c, 0xff, 0xff, 0xff, 0x0f, 0x00, 0x00, 0x00, 0x61, 0x72, 0x69, 0x74, 0x68, 0x2e, 0x63, 0x6f, 0x6e, 0x73, 0x74, 0x61, 0x6e, 0x74, 0x32, 0x00, 0x02, 0x00, 0x00, 0x00, 0x10, 0x00, 0x00, 0x00, 0x10, 0x00, 0x00, 0x00, 0xc2, 0xff, 0xff, 0xff, 0x00, 0x00, 0x00, 0x01, 0x10, 0x00, 0x00, 0x00, 0x10, 0x00, 0x00, 0x00, 0x03, 0x00, 0x00, 0x00, 0x1c, 0x00, 0x00, 0x00, 0x48, 0xff, 0xff, 0xff, 0x0f, 0x00, 0x00, 0x00, 0x61, 0x72, 0x69, 0x74, 0x68, 0x2e, 0x63, 0x6f, 0x6e, 0x73, 0x74, 0x61, 0x6e, 0x74, 0x31, 0x00, 0x02, 0x00, 0x00, 0x00, 0x08, 0x00, 0x00, 0x00, 0x10, 0x00, 0x00, 0x00, 0x00, 0x00, 0x16, 0x00, 0x18, 0x00, 0x14, 0x00, 0x00, 0x00, 0x10, 0x00, 0x0c, 0x00, 0x08, 0x00, 0x00, 0x00, 0x00, 0x00, 0x00, 0x00, 0x07, 0x00, 0x16, 0x00, 0x00, 0x00, 0x00, 0x00, 0x00, 0x01, 0x10, 0x00, 0x00, 0x00, 0x10, 0x00, 0x00, 0x00, 0x02, 0x00, 0x00, 0x00, 0x1c, 0x00, 0x00, 0x00, 0x9c, 0xff, 0xff, 0xff, 0x0e, 0x00, 0x00, 0x00, 0x61, 0x72, 0x69, 0x74, 0x68, 0x2e, 0x63, 0x6f, 0x6e, 0x73, 0x74, 0x61, 0x6e, 0x74, 0x00, 0x00, 0x02, 0x00, 0x00, 0x00, 0x01, 0x00, 0x00, 0x00, 0x08, 0x00, 0x00, 0x00, 0x00, 0x00, 0x16, 0x00, 0x1c, 0x00, 0x18, 0x00, 0x00, 0x00, 0x14, 0x00, 0x10, 0x00, 0x0c, 0x00, 0x00, 0x00, 0x00, 0x00, 0x08, 0x00, 0x07, 0x00, 0x16, 0x00, 0x00, 0x00, 0x00, 0x00, 0x00, 0x01, 0x14, 0x00, 0x00, 0x00, 0x20, 0x00, 0x00, 0x00, 0x20, 0x00, 0x00, 0x00, 0x01, 0x00, 0x00, 0x00, 0x40, 0x00, 0x00, 0x00, 0x02, 0x00, 0x00, 0x00, 0xff, 0xff, 0xff, 0xff, 0x06, 0x00, 0x00, 0x00, 0x04, 0x00, 0x04, 0x00, 0x04, 0x00, 0x00, 0x00, 0x20, 0x00, 0x00, 0x00, 0x73, 0x65, 0x72, 0x76, 0x69, 0x6e, 0x67, 0x5f, 0x64, 0x65, 0x66, 0x61, 0x75, 0x6c, 0x74, 0x5f, 0x6b, 0x65, 0x72, 0x61, 0x73, 0x5f, 0x74, 0x65, 0x6e, 0x73, 0x6f, 0x72, 0x5f, 0x39, 0x3a, 0x30, 0x00, 0x00, 0x00, 0x00, 0x02, 0x00, 0x00, 0x00, 0x01, 0x00, 0x00, 0x00, 0x06, 0x00, 0x00, 0x00, 0x02, 0x00, 0x00, 0x00, 0x20, 0x00, 0x00, 0x00, 0x04, 0x00, 0x00, 0x00, 0xf4, 0xff, 0xff, 0xff, 0x0e, 0x00, 0x00, 0x00, 0x00, 0x00, 0x00, 0x0e, 0x0c, 0x00, 0x0c, 0x00, 0x0b, 0x00, 0x00, 0x00, 0x00, 0x00, 0x04, 0x00, 0x0c, 0x00, 0x00, 0x00, 0x09, 0x00, 0x00, 0x00, 0x00, 0x00, 0x00, 0x09
};

